#ifndef SINE_MODEL_H
#define SINE_MODEL_H


unsigned int sine_model_len = 3116;
unsigned char sine_model[] = {
 0x1c, 0x00, 0x00, 0x00, 0x54, 0x46, 0x4c, 0x33, 0x14, 0x00, 0x20, 0x00,
  0x1c, 0x00, 0x18, 0x00, 0x14, 0x00, 0x10, 0x00, 0x0c, 0x00, 0x00, 0x00,
  0x08, 0x00, 0x04, 0x00, 0x14, 0x00, 0x00, 0x00, 0x1c, 0x00, 0x00, 0x00,
  0x90, 0x00, 0x00, 0x00, 0xe8, 0x00, 0x00, 0x00, 0x04, 0x07, 0x00, 0x00,
  0x14, 0x07, 0x00, 0x00, 0xd8, 0x0b, 0x00, 0x00, 0x03, 0x00, 0x00, 0x00,
  0x01, 0x00, 0x00, 0x00, 0x10, 0x00, 0x00, 0x00, 0x00, 0x00, 0x0a, 0x00,
  0x10, 0x00, 0x0c, 0x00, 0x08, 0x00, 0x04, 0x00, 0x0a, 0x00, 0x00, 0x00,
  0x0c, 0x00, 0x00, 0x00, 0x1c, 0x00, 0x00, 0x00, 0x38, 0x00, 0x00, 0x00,
  0x0f, 0x00, 0x00, 0x00, 0x73, 0x65, 0x72, 0x76, 0x69, 0x6e, 0x67, 0x5f,
  0x64, 0x65, 0x66, 0x61, 0x75, 0x6c, 0x74, 0x00, 0x01, 0x00, 0x00, 0x00,
  0x04, 0x00, 0x00, 0x00, 0x98, 0xff, 0xff, 0xff, 0x09, 0x00, 0x00, 0x00,
  0x04, 0x00, 0x00, 0x00, 0x07, 0x00, 0x00, 0x00, 0x64, 0x65, 0x6e, 0x73,
  0x65, 0x5f, 0x32, 0x00, 0x01, 0x00, 0x00, 0x00, 0x04, 0x00, 0x00, 0x00,
  0xc6, 0xf9, 0xff, 0xff, 0x04, 0x00, 0x00, 0x00, 0x0b, 0x00, 0x00, 0x00,
  0x64, 0x65, 0x6e, 0x73, 0x65, 0x5f, 0x69, 0x6e, 0x70, 0x75, 0x74, 0x00,
  0x02, 0x00, 0x00, 0x00, 0x34, 0x00, 0x00, 0x00, 0x04, 0x00, 0x00, 0x00,
  0xdc, 0xff, 0xff, 0xff, 0x0c, 0x00, 0x00, 0x00, 0x04, 0x00, 0x00, 0x00,
  0x13, 0x00, 0x00, 0x00, 0x43, 0x4f, 0x4e, 0x56, 0x45, 0x52, 0x53, 0x49,
  0x4f, 0x4e, 0x5f, 0x4d, 0x45, 0x54, 0x41, 0x44, 0x41, 0x54, 0x41, 0x00,
  0x08, 0x00, 0x0c, 0x00, 0x08, 0x00, 0x04, 0x00, 0x08, 0x00, 0x00, 0x00,
  0x0b, 0x00, 0x00, 0x00, 0x04, 0x00, 0x00, 0x00, 0x13, 0x00, 0x00, 0x00,
  0x6d, 0x69, 0x6e, 0x5f, 0x72, 0x75, 0x6e, 0x74, 0x69, 0x6d, 0x65, 0x5f,
  0x76, 0x65, 0x72, 0x73, 0x69, 0x6f, 0x6e, 0x00, 0x0d, 0x00, 0x00, 0x00,
  0x18, 0x06, 0x00, 0x00, 0x10, 0x06, 0x00, 0x00, 0xc0, 0x05, 0x00, 0x00,
  0xa4, 0x05, 0x00, 0x00, 0x54, 0x05, 0x00, 0x00, 0x04, 0x05, 0x00, 0x00,
  0xf4, 0x00, 0x00, 0x00, 0xa4, 0x00, 0x00, 0x00, 0x9c, 0x00, 0x00, 0x00,
  0x94, 0x00, 0x00, 0x00, 0x8c, 0x00, 0x00, 0x00, 0x6c, 0x00, 0x00, 0x00,
  0x04, 0x00, 0x00, 0x00, 0x72, 0xfa, 0xff, 0xff, 0x04, 0x00, 0x00, 0x00,
  0x58, 0x00, 0x00, 0x00, 0x0c, 0x00, 0x00, 0x00, 0x08, 0x00, 0x0e, 0x00,
  0x08, 0x00, 0x04, 0x00, 0x08, 0x00, 0x00, 0x00, 0x10, 0x00, 0x00, 0x00,
  0x28, 0x00, 0x00, 0x00, 0x00, 0x00, 0x06, 0x00, 0x08, 0x00, 0x04, 0x00,
  0x06, 0x00, 0x00, 0x00, 0x04, 0x00, 0x00, 0x00, 0x01, 0x00, 0x00, 0x00,
  0xea, 0x03, 0x00, 0x00, 0x00, 0x00, 0x0a, 0x00, 0x10, 0x00, 0x0c, 0x00,
  0x08, 0x00, 0x04, 0x00, 0x0a, 0x00, 0x00, 0x00, 0x02, 0x00, 0x00, 0x00,
  0x02, 0x00, 0x00, 0x00, 0x04, 0x00, 0x00, 0x00, 0x05, 0x00, 0x00, 0x00,
  0x32, 0x2e, 0x39, 0x2e, 0x31, 0x00, 0x00, 0x00, 0xd6, 0xfa, 0xff, 0xff,
  0x04, 0x00, 0x00, 0x00, 0x10, 0x00, 0x00, 0x00, 0x31, 0x2e, 0x35, 0x2e,
  0x30, 0x00, 0x00, 0x00, 0x00, 0x00, 0x00, 0x00, 0x00, 0x00, 0x00, 0x00,
  0xf4, 0xf5, 0xff, 0xff, 0xf8, 0xf5, 0xff, 0xff, 0xfc, 0xf5, 0xff, 0xff,
  0xfe, 0xfa, 0xff, 0xff, 0x04, 0x00, 0x00, 0x00, 0x40, 0x00, 0x00, 0x00,
  0x97, 0x7b, 0xdc, 0x3e, 0x0d, 0xd4, 0x66, 0xbf, 0x78, 0xfa, 0x81, 0xbd,
  0xc4, 0xec, 0x41, 0x3d, 0x74, 0x19, 0x42, 0x3e, 0x04, 0x49, 0x89, 0x3f,
  0xbb, 0xee, 0xd5, 0x3e, 0x2d, 0x35, 0xf1, 0xbe, 0x3e, 0x13, 0x7a, 0x3e,
  0x21, 0xf7, 0x95, 0x3f, 0xa8, 0x01, 0x1b, 0xbf, 0x32, 0x02, 0xed, 0xbe,
  0x8b, 0x57, 0x63, 0xbf, 0x61, 0x24, 0x28, 0xbe, 0x4b, 0xe7, 0xdb, 0x3f,
  0x4d, 0xd9, 0x2d, 0x3f, 0x4a, 0xfb, 0xff, 0xff, 0x04, 0x00, 0x00, 0x00,
  0x00, 0x04, 0x00, 0x00, 0xe0, 0x29, 0x4c, 0xbc, 0x10, 0x6e, 0x8a, 0xbe,
  0xc7, 0xb8, 0xa7, 0x3e, 0xc5, 0x1d, 0xc3, 0x3e, 0x05, 0x06, 0xac, 0xbe,
  0x0c, 0x4b, 0x2f, 0x3c, 0x27, 0x07, 0x5f, 0xbe, 0xe0, 0xdb, 0x80, 0xbd,
  0x02, 0x4b, 0xbe, 0xb9, 0x70, 0x0d, 0x3c, 0xbe, 0xf5, 0xce, 0x8d, 0xbd,
  0x53, 0x34, 0x53, 0x3e, 0x1a, 0x09, 0x64, 0xbd, 0xc3, 0xf5, 0x88, 0x3e,
  0x29, 0xb3, 0xb8, 0xbe, 0x27, 0xae, 0xc2, 0xbe, 0xbc, 0xb8, 0x7b, 0xbe,
  0x6c, 0x22, 0x68, 0xbf, 0xcd, 0x39, 0x95, 0xbe, 0xc3, 0xe7, 0x62, 0xbe,
  0xfc, 0x0c, 0x15, 0xbd, 0x96, 0x59, 0x88, 0xbe, 0x17, 0x25, 0x13, 0xbf,
  0xdd, 0xf9, 0xbd, 0x3e, 0xfd, 0xc5, 0xd5, 0x3e, 0x12, 0x76, 0xbe, 0xbe,
  0xf4, 0x88, 0xc2, 0xbe, 0x49, 0x85, 0x14, 0xbe, 0x5a, 0x83, 0x76, 0xbe,
  0x9f, 0x37, 0x99, 0x3e, 0xe0, 0x16, 0x2a, 0x3c, 0x2a, 0x28, 0xab, 0x3d,
  0x71, 0xa5, 0xbe, 0xbe, 0x44, 0x4c, 0xc2, 0x3d, 0x2d, 0x20, 0xba, 0xbe,
  0xc9, 0xf7, 0xaf, 0x3e, 0x74, 0xab, 0xa7, 0xbe, 0x73, 0x52, 0xa3, 0x3e,
  0xf4, 0x2f, 0xb8, 0x3d, 0xb4, 0xf1, 0x36, 0xbe, 0x18, 0x79, 0x9f, 0xbd,
  0xf6, 0x2c, 0xb7, 0xbe, 0xfa, 0xa2, 0xc8, 0xbe, 0xfa, 0x76, 0x77, 0x3e,
  0x64, 0x43, 0x8b, 0xbd, 0xb0, 0x29, 0x81, 0xbe, 0x40, 0xf7, 0x2a, 0xbc,
  0x7a, 0xa7, 0xc1, 0xbe, 0x9d, 0x5a, 0xc6, 0xbe, 0x0c, 0x27, 0xd0, 0xbd,
  0xfb, 0x65, 0xbe, 0xbe, 0x48, 0xfa, 0xc1, 0xbd, 0x80, 0xc2, 0x2b, 0x3d,
  0x93, 0x92, 0x1a, 0xbe, 0xbc, 0xfa, 0x1f, 0xbe, 0xdf, 0xab, 0xc3, 0x3e,
  0x44, 0x4e, 0xf5, 0xbd, 0x62, 0x1c, 0xca, 0x3e, 0x1e, 0x46, 0x40, 0xbe,
  0x2f, 0x98, 0xbb, 0xbe, 0x40, 0xc0, 0x7e, 0xbe, 0x69, 0x67, 0x18, 0xbe,
  0xc9, 0x1f, 0xba, 0x3e, 0x55, 0x70, 0x29, 0xbd, 0x72, 0x5c, 0x55, 0x3e,
  0x0d, 0xda, 0x9e, 0x3e, 0xde, 0xb2, 0x08, 0x3e, 0xa7, 0x27, 0xb9, 0xbe,
  0x02, 0x32, 0x23, 0x3e, 0x36, 0xf0, 0x0a, 0x3e, 0xe5, 0x33, 0xb8, 0xbe,
  0x44, 0xe9, 0x85, 0xbe, 0x8c, 0xf2, 0x97, 0xbe, 0xd8, 0x5e, 0x3a, 0xbd,
  0xc0, 0xa3, 0x88, 0xbb, 0xde, 0x7c, 0x86, 0xbe, 0x08, 0x34, 0xc2, 0xbd,
  0xec, 0x51, 0x95, 0xbd, 0x3e, 0xd3, 0x49, 0x3e, 0x3c, 0x12, 0xd6, 0x3d,
  0x66, 0x19, 0x59, 0x3e, 0xd2, 0x2c, 0x86, 0x3d, 0x51, 0x42, 0xb0, 0x3e,
  0x0e, 0x15, 0x7e, 0x3e, 0x21, 0x9c, 0xda, 0x3d, 0xb2, 0xc8, 0x22, 0xbf,
  0x7e, 0xae, 0xa5, 0x3e, 0x31, 0xf3, 0xba, 0x3e, 0x5a, 0x95, 0x62, 0xbf,
  0xe9, 0xaa, 0xef, 0xbe, 0x04, 0x96, 0xb7, 0xbe, 0x38, 0x42, 0xac, 0x3e,
  0x58, 0x76, 0xda, 0xbe, 0x6d, 0x57, 0xa7, 0x3d, 0xac, 0xfa, 0xca, 0xbe,
  0x1c, 0x6f, 0xcb, 0x3e, 0x63, 0xd5, 0xc1, 0x3e, 0x28, 0x2e, 0x22, 0x3d,
  0x13, 0x6b, 0xd6, 0x3e, 0x32, 0x67, 0x77, 0x3e, 0xbc, 0xa9, 0xb7, 0x3e,
  0x11, 0xa4, 0x2c, 0xbd, 0x59, 0xc2, 0xb1, 0x3d, 0x2a, 0x51, 0x75, 0x3e,
  0x0a, 0xee, 0x09, 0x3f, 0x16, 0x82, 0x16, 0x3e, 0x21, 0x66, 0xdc, 0x3d,
  0x8f, 0x9a, 0x9c, 0xbe, 0x33, 0xcd, 0x98, 0x3e, 0x06, 0xef, 0xd9, 0xbd,
  0x46, 0xb1, 0x01, 0x3e, 0x52, 0x84, 0x8a, 0x3e, 0xc6, 0xe0, 0x39, 0x3e,
  0x98, 0x5e, 0xf7, 0xbd, 0xa9, 0xb7, 0xc1, 0x3e, 0xef, 0x06, 0x6a, 0xbe,
  0x00, 0x6d, 0x1e, 0xbe, 0xf0, 0x21, 0x8e, 0xbe, 0x10, 0xae, 0xc3, 0xbe,
  0x00, 0xf3, 0xd5, 0x3b, 0x45, 0x93, 0x9f, 0x3e, 0x09, 0xcd, 0xb8, 0x3e,
  0x4c, 0xa6, 0xaf, 0xbe, 0x80, 0x6e, 0x45, 0x3c, 0xdd, 0x4c, 0xd7, 0x3e,
  0x6c, 0x65, 0xda, 0xbe, 0x0b, 0x91, 0xca, 0x3e, 0x64, 0xf2, 0x99, 0xbe,
  0xd4, 0xe3, 0x04, 0xbe, 0x83, 0xd6, 0xac, 0x3e, 0x30, 0xa6, 0xdd, 0x3c,
  0x10, 0x47, 0xc8, 0xbc, 0xfa, 0xa3, 0x42, 0x3e, 0xc6, 0xe8, 0x6b, 0xbe,
  0x84, 0xa6, 0x78, 0x3e, 0xd7, 0x80, 0xc1, 0x3e, 0xd9, 0x35, 0x1a, 0x3e,
  0xef, 0x27, 0xa3, 0x3e, 0x19, 0xd5, 0xc6, 0x3d, 0xf3, 0x6f, 0xac, 0xbe,
  0xae, 0x07, 0x1f, 0x3e, 0x62, 0xb3, 0xd7, 0x3d, 0xda, 0x29, 0x18, 0xbe,
  0x9d, 0x26, 0x90, 0xbe, 0xd6, 0xa2, 0x83, 0xbe, 0x66, 0x38, 0x90, 0xbc,
  0x9e, 0xae, 0x4d, 0x3e, 0x7c, 0x12, 0xec, 0x3d, 0xbb, 0x70, 0x9c, 0x3e,
  0x4e, 0x62, 0x25, 0xbf, 0x31, 0x1b, 0x5e, 0x3c, 0x5c, 0x2f, 0xbd, 0xbe,
  0xcd, 0x98, 0x71, 0xbf, 0xeb, 0xfc, 0xf4, 0xbd, 0x3d, 0x12, 0x10, 0xbf,
  0x6b, 0x38, 0x8c, 0x3e, 0x88, 0x83, 0xa1, 0xbc, 0xff, 0xd1, 0xc3, 0xbd,
  0x8c, 0xb2, 0xaf, 0x3d, 0x78, 0x37, 0xc2, 0x3c, 0xf9, 0xa4, 0xbc, 0xbe,
  0x63, 0xda, 0xed, 0x3d, 0x04, 0x9c, 0x98, 0x3d, 0xd3, 0x81, 0xdc, 0x3e,
  0x29, 0x7d, 0x54, 0xbd, 0x69, 0xb3, 0xbd, 0x3d, 0xee, 0x6f, 0x70, 0xbd,
  0x57, 0x76, 0x90, 0x3e, 0xc1, 0xf3, 0x3b, 0xbe, 0x7b, 0xa3, 0x8d, 0xbe,
  0x03, 0xa7, 0xbb, 0x3e, 0x0e, 0x40, 0x5d, 0x3e, 0x50, 0x48, 0xb1, 0x3e,
  0x74, 0x88, 0xaa, 0xbd, 0x30, 0xe8, 0xd8, 0xbd, 0x9d, 0x33, 0xb5, 0x3d,
  0xa0, 0xfb, 0xb5, 0xbc, 0x35, 0x7f, 0xb2, 0x3e, 0xe4, 0x75, 0x8b, 0xbd,
  0xe8, 0x5b, 0xca, 0xbd, 0x06, 0xfd, 0xd5, 0x3e, 0x2b, 0x8d, 0x10, 0xbf,
  0x7f, 0x40, 0x0d, 0x3e, 0xea, 0xf0, 0x83, 0xbe, 0x6d, 0x90, 0x59, 0x3e,
  0x66, 0x4f, 0x0c, 0x3d, 0x81, 0xd7, 0x9f, 0x3e, 0xcf, 0x1f, 0x8e, 0xbd,
  0x16, 0xcb, 0x26, 0xbe, 0x46, 0x86, 0xbf, 0x3e, 0x46, 0xfb, 0x34, 0xbe,
  0xb9, 0x60, 0x8e, 0xbe, 0x18, 0x38, 0x3e, 0xbe, 0x38, 0x97, 0xf0, 0xbe,
  0x39, 0x44, 0x81, 0x3e, 0x6a, 0xce, 0x19, 0x3e, 0x74, 0x5b, 0x7a, 0xbe,
  0xa3, 0x37, 0xf6, 0xbe, 0x9a, 0x76, 0x1c, 0xbe, 0x40, 0x45, 0xbd, 0x3c,
  0x48, 0x68, 0x3b, 0xbd, 0x2c, 0x76, 0xd1, 0xbe, 0xfe, 0x82, 0x81, 0xbf,
  0xe9, 0xc9, 0x63, 0x3e, 0xaf, 0x4e, 0x84, 0x3d, 0xc2, 0x6c, 0x0e, 0xbf,
  0xc0, 0xcf, 0x2b, 0xbe, 0x0b, 0xc0, 0xaf, 0x3e, 0x38, 0x71, 0xa3, 0xbe,
  0x08, 0x10, 0x38, 0xbd, 0x50, 0xfb, 0x36, 0xbe, 0xa8, 0x43, 0x55, 0xbd,
  0x10, 0x52, 0x75, 0x3e, 0x6d, 0xe1, 0x79, 0xbe, 0x8a, 0xb7, 0x92, 0x3e,
  0x48, 0x67, 0x12, 0xbe, 0xe7, 0xb0, 0x53, 0x3e, 0x2e, 0x82, 0x17, 0xbe,
  0xbc, 0x99, 0x19, 0x3e, 0xdd, 0x7c, 0x36, 0xbe, 0xe6, 0xb1, 0xc1, 0x3e,
  0xda, 0xe5, 0x1d, 0xbe, 0xe2, 0xde, 0x9f, 0xbe, 0x39, 0x71, 0xf1, 0xbd,
  0x06, 0x33, 0x76, 0x3e, 0xd5, 0x6a, 0xc2, 0x3e, 0xa0, 0x71, 0x69, 0xbe,
  0xb0, 0xdf, 0x35, 0xbd, 0xff, 0x28, 0x68, 0xbe, 0xf7, 0x60, 0xc4, 0x3e,
  0x3f, 0x7c, 0x2c, 0x3e, 0x00, 0xe5, 0xb5, 0xbd, 0xd3, 0x1a, 0x0d, 0x3f,
  0xfd, 0xc7, 0xf5, 0x3e, 0xe2, 0x13, 0x0c, 0x3f, 0xd8, 0x23, 0xfa, 0xbe,
  0xb3, 0xd8, 0xa8, 0x3e, 0x21, 0xca, 0xc1, 0xbe, 0x6a, 0xfa, 0x86, 0xbe,
  0x1c, 0xa1, 0xd0, 0xbe, 0x21, 0xb9, 0xcd, 0x3e, 0x52, 0x08, 0xd5, 0x3e,
  0x7d, 0x49, 0xd9, 0x3e, 0x86, 0x42, 0x63, 0x3e, 0x6c, 0x43, 0xc2, 0x3e,
  0x9b, 0xa6, 0x28, 0xbf, 0xd4, 0xa6, 0x66, 0xbd, 0x94, 0xae, 0x8c, 0x3d,
  0x11, 0x16, 0x87, 0xbf, 0x79, 0xe8, 0xf8, 0xbe, 0x39, 0xe3, 0xc9, 0xbe,
  0xdd, 0x0f, 0xbf, 0x3e, 0xd7, 0x3d, 0xcc, 0xbd, 0x19, 0xc2, 0xea, 0x3c,
  0xc0, 0x75, 0x26, 0x3d, 0x88, 0x15, 0x86, 0xbe, 0x56, 0xff, 0xff, 0xff,
  0x04, 0x00, 0x00, 0x00, 0x40, 0x00, 0x00, 0x00, 0x06, 0x0c, 0x16, 0xbe,
  0x18, 0xb5, 0x87, 0x3e, 0x24, 0x9b, 0x0e, 0xbf, 0xf7, 0x02, 0xa5, 0xbe,
  0x75, 0x82, 0x96, 0x3e, 0x25, 0x95, 0x71, 0x3e, 0x34, 0xe7, 0x9b, 0x3e,
  0x0f, 0xc8, 0xd8, 0xbe, 0x26, 0x66, 0x0c, 0x3e, 0x1f, 0x45, 0xac, 0x3e,
  0x77, 0x91, 0x6b, 0x3e, 0x47, 0x3d, 0x3f, 0x3e, 0xd0, 0x9b, 0xb9, 0x3e,
  0xea, 0xf9, 0xa7, 0x3e, 0x80, 0xa4, 0xab, 0xbd, 0x04, 0x02, 0xfa, 0x3d,
  0xa2, 0xff, 0xff, 0xff, 0x04, 0x00, 0x00, 0x00, 0x40, 0x00, 0x00, 0x00,
  0x97, 0x26, 0xe2, 0xbc, 0x91, 0xd3, 0x5e, 0x3d, 0x00, 0x00, 0x00, 0x00,
  0x7b, 0xc0, 0x59, 0xbb, 0x00, 0x00, 0x00, 0x00, 0x87, 0x80, 0x2b, 0x3e,
  0xac, 0x33, 0x8b, 0xbe, 0x00, 0x00, 0x00, 0x00, 0x4a, 0xf1, 0x5b, 0xbe,
  0x91, 0xaa, 0x24, 0x3e, 0x8c, 0xcf, 0x04, 0x3e, 0x83, 0xcf, 0x3e, 0x3d,
  0x09, 0xbf, 0xde, 0x3e, 0xb7, 0x3c, 0xfe, 0x3d, 0xae, 0x9a, 0xf4, 0xbe,
  0xec, 0xd1, 0xf5, 0x3d, 0xee, 0xff, 0xff, 0xff, 0x04, 0x00, 0x00, 0x00,
  0x04, 0x00, 0x00, 0x00, 0xa5, 0xfc, 0x98, 0xbe, 0x00, 0x00, 0x06, 0x00,
  0x08, 0x00, 0x04, 0x00, 0x06, 0x00, 0x00, 0x00, 0x04, 0x00, 0x00, 0x00,
  0x40, 0x00, 0x00, 0x00, 0x00, 0x00, 0x00, 0x00, 0x5e, 0xc6, 0x36, 0xbd,
  0x00, 0x00, 0x00, 0x00, 0x00, 0x00, 0x00, 0x00, 0xf4, 0x70, 0xab, 0x3d,
  0xe8, 0xa6, 0xf2, 0xbe, 0xb7, 0xdf, 0x45, 0xbc, 0x00, 0x00, 0x00, 0x00,
  0xec, 0x42, 0xbd, 0xbe, 0x25, 0x87, 0x32, 0xbf, 0x66, 0x9d, 0xaf, 0xbe,
  0x39, 0x63, 0xe8, 0x3e, 0x9b, 0xe6, 0xab, 0xbe, 0xbf, 0x49, 0x8a, 0x3e,
  0x00, 0x00, 0x00, 0x00, 0x39, 0x7d, 0x97, 0x3e, 0x54, 0xfb, 0xff, 0xff,
  0x58, 0xfb, 0xff, 0xff, 0x0f, 0x00, 0x00, 0x00, 0x4d, 0x4c, 0x49, 0x52,
  0x20, 0x43, 0x6f, 0x6e, 0x76, 0x65, 0x72, 0x74, 0x65, 0x64, 0x2e, 0x00,
  0x01, 0x00, 0x00, 0x00, 0x14, 0x00, 0x00, 0x00, 0x00, 0x00, 0x0e, 0x00,
  0x18, 0x00, 0x14, 0x00, 0x10, 0x00, 0x0c, 0x00, 0x08, 0x00, 0x04, 0x00,
  0x0e, 0x00, 0x00, 0x00, 0x14, 0x00, 0x00, 0x00, 0x1c, 0x00, 0x00, 0x00,
  0xd8, 0x00, 0x00, 0x00, 0xdc, 0x00, 0x00, 0x00, 0xe0, 0x00, 0x00, 0x00,
  0x04, 0x00, 0x00, 0x00, 0x6d, 0x61, 0x69, 0x6e, 0x00, 0x00, 0x00, 0x00,
  0x03, 0x00, 0x00, 0x00, 0x80, 0x00, 0x00, 0x00, 0x38, 0x00, 0x00, 0x00,
  0x04, 0x00, 0x00, 0x00, 0x9a, 0xff, 0xff, 0xff, 0x10, 0x00, 0x00, 0x00,
  0x00, 0x00, 0x00, 0x08, 0x0c, 0x00, 0x00, 0x00, 0x10, 0x00, 0x00, 0x00,
  0xd0, 0xfb, 0xff, 0xff, 0x01, 0x00, 0x00, 0x00, 0x09, 0x00, 0x00, 0x00,
  0x03, 0x00, 0x00, 0x00, 0x08, 0x00, 0x00, 0x00, 0x06, 0x00, 0x00, 0x00,
  0x02, 0x00, 0x00, 0x00, 0xca, 0xff, 0xff, 0xff, 0x10, 0x00, 0x00, 0x00,
  0x00, 0x00, 0x00, 0x08, 0x10, 0x00, 0x00, 0x00, 0x14, 0x00, 0x00, 0x00,
  0xba, 0xff, 0xff, 0xff, 0x00, 0x00, 0x00, 0x01, 0x01, 0x00, 0x00, 0x00,
  0x08, 0x00, 0x00, 0x00, 0x03, 0x00, 0x00, 0x00, 0x07, 0x00, 0x00, 0x00,
  0x05, 0x00, 0x00, 0x00, 0x03, 0x00, 0x00, 0x00, 0x00, 0x00, 0x0e, 0x00,
  0x16, 0x00, 0x00, 0x00, 0x10, 0x00, 0x0c, 0x00, 0x0b, 0x00, 0x04, 0x00,
  0x0e, 0x00, 0x00, 0x00, 0x18, 0x00, 0x00, 0x00, 0x00, 0x00, 0x00, 0x08,
  0x18, 0x00, 0x00, 0x00, 0x1c, 0x00, 0x00, 0x00, 0x00, 0x00, 0x06, 0x00,
  0x08, 0x00, 0x07, 0x00, 0x06, 0x00, 0x00, 0x00, 0x00, 0x00, 0x00, 0x01,
  0x01, 0x00, 0x00, 0x00, 0x07, 0x00, 0x00, 0x00, 0x03, 0x00, 0x00, 0x00,
  0x00, 0x00, 0x00, 0x00, 0x04, 0x00, 0x00, 0x00, 0x01, 0x00, 0x00, 0x00,
  0x01, 0x00, 0x00, 0x00, 0x09, 0x00, 0x00, 0x00, 0x01, 0x00, 0x00, 0x00,
  0x00, 0x00, 0x00, 0x00, 0x0a, 0x00, 0x00, 0x00, 0x5c, 0x03, 0x00, 0x00,
  0xf8, 0x02, 0x00, 0x00, 0x94, 0x02, 0x00, 0x00, 0x40, 0x02, 0x00, 0x00,
  0xfc, 0x01, 0x00, 0x00, 0xb4, 0x01, 0x00, 0x00, 0x6c, 0x01, 0x00, 0x00,
  0xe8, 0x00, 0x00, 0x00, 0x5c, 0x00, 0x00, 0x00, 0x04, 0x00, 0x00, 0x00,
  0xe0, 0xfc, 0xff, 0xff, 0x14, 0x00, 0x00, 0x00, 0x1c, 0x00, 0x00, 0x00,
  0x1c, 0x00, 0x00, 0x00, 0x0a, 0x00, 0x00, 0x00, 0x34, 0x00, 0x00, 0x00,
  0x02, 0x00, 0x00, 0x00, 0xff, 0xff, 0xff, 0xff, 0x01, 0x00, 0x00, 0x00,
  0xcc, 0xfc, 0xff, 0xff, 0x19, 0x00, 0x00, 0x00, 0x53, 0x74, 0x61, 0x74,
  0x65, 0x66, 0x75, 0x6c, 0x50, 0x61, 0x72, 0x74, 0x69, 0x74, 0x69, 0x6f,
  0x6e, 0x65, 0x64, 0x43, 0x61, 0x6c, 0x6c, 0x3a, 0x30, 0x00, 0x00, 0x00,
  0x02, 0x00, 0x00, 0x00, 0x01, 0x00, 0x00, 0x00, 0x01, 0x00, 0x00, 0x00,
  0x34, 0xfd, 0xff, 0xff, 0x14, 0x00, 0x00, 0x00, 0x1c, 0x00, 0x00, 0x00,
  0x1c, 0x00, 0x00, 0x00, 0x09, 0x00, 0x00, 0x00, 0x68, 0x00, 0x00, 0x00,
  0x02, 0x00, 0x00, 0x00, 0xff, 0xff, 0xff, 0xff, 0x10, 0x00, 0x00, 0x00,
  0x20, 0xfd, 0xff, 0xff, 0x4c, 0x00, 0x00, 0x00, 0x73, 0x65, 0x71, 0x75,
  0x65, 0x6e, 0x74, 0x69, 0x61, 0x6c, 0x2f, 0x64, 0x65, 0x6e, 0x73, 0x65,
  0x5f, 0x31, 0x2f, 0x4d, 0x61, 0x74, 0x4d, 0x75, 0x6c, 0x3b, 0x73, 0x65,
  0x71, 0x75, 0x65, 0x6e, 0x74, 0x69, 0x61, 0x6c, 0x2f, 0x64, 0x65, 0x6e,
  0x73, 0x65, 0x5f, 0x31, 0x2f, 0x52, 0x65, 0x6c, 0x75, 0x3b, 0x73, 0x65,
  0x71, 0x75, 0x65, 0x6e, 0x74, 0x69, 0x61, 0x6c, 0x2f, 0x64, 0x65, 0x6e,
  0x73, 0x65, 0x5f, 0x31, 0x2f, 0x42, 0x69, 0x61, 0x73, 0x41, 0x64, 0x64,
  0x00, 0x00, 0x00, 0x00, 0x02, 0x00, 0x00, 0x00, 0x01, 0x00, 0x00, 0x00,
  0x10, 0x00, 0x00, 0x00, 0xbc, 0xfd, 0xff, 0xff, 0x14, 0x00, 0x00, 0x00,
  0x1c, 0x00, 0x00, 0x00, 0x1c, 0x00, 0x00, 0x00, 0x08, 0x00, 0x00, 0x00,
  0x60, 0x00, 0x00, 0x00, 0x02, 0x00, 0x00, 0x00, 0xff, 0xff, 0xff, 0xff,
  0x10, 0x00, 0x00, 0x00, 0xa8, 0xfd, 0xff, 0xff, 0x46, 0x00, 0x00, 0x00,
  0x73, 0x65, 0x71, 0x75, 0x65, 0x6e, 0x74, 0x69, 0x61, 0x6c, 0x2f, 0x64,
  0x65, 0x6e, 0x73, 0x65, 0x2f, 0x4d, 0x61, 0x74, 0x4d, 0x75, 0x6c, 0x3b,
  0x73, 0x65, 0x71, 0x75, 0x65, 0x6e, 0x74, 0x69, 0x61, 0x6c, 0x2f, 0x64,
  0x65, 0x6e, 0x73, 0x65, 0x2f, 0x52, 0x65, 0x6c, 0x75, 0x3b, 0x73, 0x65,
  0x71, 0x75, 0x65, 0x6e, 0x74, 0x69, 0x61, 0x6c, 0x2f, 0x64, 0x65, 0x6e,
  0x73, 0x65, 0x2f, 0x42, 0x69, 0x61, 0x73, 0x41, 0x64, 0x64, 0x00, 0x00,
  0x02, 0x00, 0x00, 0x00, 0x01, 0x00, 0x00, 0x00, 0x10, 0x00, 0x00, 0x00,
  0x96, 0xfe, 0xff, 0xff, 0x10, 0x00, 0x00, 0x00, 0x10, 0x00, 0x00, 0x00,
  0x07, 0x00, 0x00, 0x00, 0x28, 0x00, 0x00, 0x00, 0x18, 0xfe, 0xff, 0xff,
  0x19, 0x00, 0x00, 0x00, 0x73, 0x65, 0x71, 0x75, 0x65, 0x6e, 0x74, 0x69,
  0x61, 0x6c, 0x2f, 0x64, 0x65, 0x6e, 0x73, 0x65, 0x5f, 0x32, 0x2f, 0x4d,
  0x61, 0x74, 0x4d, 0x75, 0x6c, 0x00, 0x00, 0x00, 0x02, 0x00, 0x00, 0x00,
  0x01, 0x00, 0x00, 0x00, 0x10, 0x00, 0x00, 0x00, 0xda, 0xfe, 0xff, 0xff,
  0x10, 0x00, 0x00, 0x00, 0x10, 0x00, 0x00, 0x00, 0x06, 0x00, 0x00, 0x00,
  0x28, 0x00, 0x00, 0x00, 0x5c, 0xfe, 0xff, 0xff, 0x19, 0x00, 0x00, 0x00,
  0x73, 0x65, 0x71, 0x75, 0x65, 0x6e, 0x74, 0x69, 0x61, 0x6c, 0x2f, 0x64,
  0x65, 0x6e, 0x73, 0x65, 0x5f, 0x31, 0x2f, 0x4d, 0x61, 0x74, 0x4d, 0x75,
  0x6c, 0x00, 0x00, 0x00, 0x02, 0x00, 0x00, 0x00, 0x10, 0x00, 0x00, 0x00,
  0x10, 0x00, 0x00, 0x00, 0x1e, 0xff, 0xff, 0xff, 0x10, 0x00, 0x00, 0x00,
  0x10, 0x00, 0x00, 0x00, 0x05, 0x00, 0x00, 0x00, 0x24, 0x00, 0x00, 0x00,
  0xa0, 0xfe, 0xff, 0xff, 0x17, 0x00, 0x00, 0x00, 0x73, 0x65, 0x71, 0x75,
  0x65, 0x6e, 0x74, 0x69, 0x61, 0x6c, 0x2f, 0x64, 0x65, 0x6e, 0x73, 0x65,
  0x2f, 0x4d, 0x61, 0x74, 0x4d, 0x75, 0x6c, 0x00, 0x02, 0x00, 0x00, 0x00,
  0x10, 0x00, 0x00, 0x00, 0x01, 0x00, 0x00, 0x00, 0x5e, 0xff, 0xff, 0xff,
  0x10, 0x00, 0x00, 0x00, 0x10, 0x00, 0x00, 0x00, 0x04, 0x00, 0x00, 0x00,
  0x38, 0x00, 0x00, 0x00, 0xe0, 0xfe, 0xff, 0xff, 0x29, 0x00, 0x00, 0x00,
  0x73, 0x65, 0x71, 0x75, 0x65, 0x6e, 0x74, 0x69, 0x61, 0x6c, 0x2f, 0x64,
  0x65, 0x6e, 0x73, 0x65, 0x5f, 0x31, 0x2f, 0x42, 0x69, 0x61, 0x73, 0x41,
  0x64, 0x64, 0x2f, 0x52, 0x65, 0x61, 0x64, 0x56, 0x61, 0x72, 0x69, 0x61,
  0x62, 0x6c, 0x65, 0x4f, 0x70, 0x00, 0x00, 0x00, 0x01, 0x00, 0x00, 0x00,
  0x10, 0x00, 0x00, 0x00, 0xae, 0xff, 0xff, 0xff, 0x10, 0x00, 0x00, 0x00,
  0x10, 0x00, 0x00, 0x00, 0x03, 0x00, 0x00, 0x00, 0x38, 0x00, 0x00, 0x00,
  0x30, 0xff, 0xff, 0xff, 0x29, 0x00, 0x00, 0x00, 0x73, 0x65, 0x71, 0x75,
  0x65, 0x6e, 0x74, 0x69, 0x61, 0x6c, 0x2f, 0x64, 0x65, 0x6e, 0x73, 0x65,
  0x5f, 0x32, 0x2f, 0x42, 0x69, 0x61, 0x73, 0x41, 0x64, 0x64, 0x2f, 0x52,
  0x65, 0x61, 0x64, 0x56, 0x61, 0x72, 0x69, 0x61, 0x62, 0x6c, 0x65, 0x4f,
  0x70, 0x00, 0x00, 0x00, 0x01, 0x00, 0x00, 0x00, 0x01, 0x00, 0x00, 0x00,
  0x00, 0x00, 0x0e, 0x00, 0x14, 0x00, 0x10, 0x00, 0x00, 0x00, 0x0c, 0x00,
  0x08, 0x00, 0x04, 0x00, 0x0e, 0x00, 0x00, 0x00, 0x10, 0x00, 0x00, 0x00,
  0x10, 0x00, 0x00, 0x00, 0x02, 0x00, 0x00, 0x00, 0x34, 0x00, 0x00, 0x00,
  0x90, 0xff, 0xff, 0xff, 0x27, 0x00, 0x00, 0x00, 0x73, 0x65, 0x71, 0x75,
  0x65, 0x6e, 0x74, 0x69, 0x61, 0x6c, 0x2f, 0x64, 0x65, 0x6e, 0x73, 0x65,
  0x2f, 0x42, 0x69, 0x61, 0x73, 0x41, 0x64, 0x64, 0x2f, 0x52, 0x65, 0x61,
  0x64, 0x56, 0x61, 0x72, 0x69, 0x61, 0x62, 0x6c, 0x65, 0x4f, 0x70, 0x00,
  0x01, 0x00, 0x00, 0x00, 0x10, 0x00, 0x00, 0x00, 0x14, 0x00, 0x18, 0x00,
  0x14, 0x00, 0x00, 0x00, 0x10, 0x00, 0x0c, 0x00, 0x08, 0x00, 0x00, 0x00,
  0x00, 0x00, 0x04, 0x00, 0x14, 0x00, 0x00, 0x00, 0x14, 0x00, 0x00, 0x00,
  0x20, 0x00, 0x00, 0x00, 0x20, 0x00, 0x00, 0x00, 0x01, 0x00, 0x00, 0x00,
  0x3c, 0x00, 0x00, 0x00, 0x02, 0x00, 0x00, 0x00, 0xff, 0xff, 0xff, 0xff,
  0x01, 0x00, 0x00, 0x00, 0x04, 0x00, 0x04, 0x00, 0x04, 0x00, 0x00, 0x00,
  0x1d, 0x00, 0x00, 0x00, 0x73, 0x65, 0x72, 0x76, 0x69, 0x6e, 0x67, 0x5f,
  0x64, 0x65, 0x66, 0x61, 0x75, 0x6c, 0x74, 0x5f, 0x64, 0x65, 0x6e, 0x73,
  0x65, 0x5f, 0x69, 0x6e, 0x70, 0x75, 0x74, 0x3a, 0x30, 0x00, 0x00, 0x00,
  0x02, 0x00, 0x00, 0x00, 0x01, 0x00, 0x00, 0x00, 0x01, 0x00, 0x00, 0x00,
  0x01, 0x00, 0x00, 0x00, 0x10, 0x00, 0x00, 0x00, 0x0c, 0x00, 0x0c, 0x00,
  0x0b, 0x00, 0x00, 0x00, 0x00, 0x00, 0x04, 0x00, 0x0c, 0x00, 0x00, 0x00,
  0x09, 0x00, 0x00, 0x00, 0x00, 0x00, 0x00, 0x09
};

#endif //SINE_MODEL_H